11111111111111111000001110111110
00000000000000100010110001010101
00000000000000001000000110111111
11111111111111101101111100111101
11111111111111111101001001101001
11111111111111111111110010010010
11111111111111100100010000011110
11111111111111111100101101001111
00000000000000000011110100111111
11111111111111101111100101011110
00000000000000000011100110101001
11111111111111111100011100011111
00000000000000000000101001111100
11111111111111111111101001011100
00000000000000001001110111101101
11111111111111110010101111001111
11111111111111111001010101010001
00000000000000010111100111100111
11111111111111100100111111010111
11111111111111011011110111111111
00000000000000000010011011100000
11111111111111101001110111011001
00000000000000011001010000111110
11111111111111101011001010001010
00000000000000010000001000011000
11111111111111111011111011011010
11111111111111111101000111100100
00000000000000000000011111111000
11111111111111110010101110001011
11111111111111111110011111111101
11111111111111110001110010011101
00000000000000001001111010110011
00000000000000001011011101111101
11111111111111101011101010111011
00000000000000001100101001110011
11111111111111101001011001000011
11111111111111110101000110000000
00000000000000001100100001010111
00000000000000001111110111001011
11111111111111111110101001000011
11111111111111110110000000111001
00000000000000010101111101011011
11111111111111111110011010001101
11111111111111111001010110010010
00000000000000011101010100010000
00000000000000000110010010010101
00000000000000010101011100001110
00000000000000000001011100101011
00000000000000000111011110110011
11111111111111111001100011110110
00000000000000010101101011111000
00000000000000011000001000110000
00000000000000000100100011100100
11111111111111101100001111011011
00000000000000011001100001010000
11111111111111110011000110011110
00000000000000001101100110010001
11111111111111011011101101111010
00000000000000010000100001110100
11111111111111111100000100010000
11111111111111011010000100011011
11111111111111101001010101101100
00000000000000000000111111100101
00000000000000000001001101101110
00000000000000001011001110101101
00000000000000001111001000010011
11111111111111110100000110010101
00000000000000000000110110100101
11111111111111011001101110100011
00000000000000010010110000100101
00000000000000001110100101010010
11111111111111101011011011101010
11111111111111101110010011010001
11111111111111111101110111011001
00000000000000010010100001000110
00000000000000000100110111011101
00000000000000001101100110111110
11111111111111101100001011100011
11111111111111101000100100011100
11111111111111101101111100110101
00000000000000001010100100010100
00000000000000001000111101110100
11111111111111101110011001000111
00000000000000010000010111110111
11111111111111111010010000010000
11111111111111111001000000001001
11111111111111111000000110110111
11111111111111101001011010000110
00000000000000000011101101010011
11111111111111101101110101101000
00000000000000000111100000111101
00000000000000000001011000110100
11111111111111111111101011110011
11111111111111111110001101011100
00000000000000100111000010000110
00000000000000001001110101100001
00000000000000010000010100101010
00000000000000001000000010000000
11111111111111101010001001011011
00000000000000000000111100011010
00000000000000000110110100011000
11111111111111101110110111001101
00000000000000000000101010010011
00000000000000010011001011000111
11111111111111101001111111000100
00000000000000000111001001001010
11111111111111110011111010110011
00000000000000001010111001100110
11111111111111100110100001001000
11111111111111111001101011110110
11111111111111101100001000101001
00000000000000000101001000100101
00000000000000001001111110100101
11111111111111101000111111101101
11111111111111111110111110010111
00000000000000010100010000011000
00000000000000000100110001101100
11111111111111111101101011101101
11111111111111110101110011011001
00000000000000001100111010101110
00000000000000001011111100011111
00000000000000001101100100110010
00000000000000010001101101100100
00000000000000000110111001000111
11111111111111100011010000000110
11111111111111011001100001000001
00000000000000010111010010111101
11111111111111110110100011001111
11111111111111111111010010111011
11111111111111101010001010111111
00000000000000010011100000001100
11111111111111110101001110001011
00000000000000001010010101111101
11111111111111111010101011111011
11111111111111111010000010101000
00000000000000000100010000110100
11111111111111101010110001110100
11111111111111110110011001101110
00000000000000010100000111000001
11111111111111111101000001000010
11111111111111101011010101010100
00000000000000000101100000101111
00000000000000010100011101011110
00000000000000001111111101011100
00000000000000000110000110110010
00000000000000001011110101110100
11111111111111100111100011011000
00000000000000101110000110010001
00000000000000000011011011000100
00000000000000100000000000100110